#ifndef SINE_MODEL_H
#define SINE_MODEL_H

unsigned int sine_model_len = 3168;
unsigned char sine_model[] = {
  0x1c, 0x00, 0x00, 0x00, 0x54, 0x46, 0x4c, 0x33, 0x14, 0x00, 0x20, 0x00, 
  0x1c, 0x00, 0x18, 0x00, 0x14, 0x00, 0x10, 0x00, 0x0c, 0x00, 0x00, 0x00, 
  0x08, 0x00, 0x04, 0x00, 0x14, 0x00, 0x00, 0x00, 0x1c, 0x00, 0x00, 0x00, 
  0x90, 0x00, 0x00, 0x00, 0xe8, 0x00, 0x00, 0x00, 0x04, 0x07, 0x00, 0x00, 
  0x14, 0x07, 0x00, 0x00, 0x0c, 0x0c, 0x00, 0x00, 0x03, 0x00, 0x00, 0x00, 
  0x01, 0x00, 0x00, 0x00, 0x10, 0x00, 0x00, 0x00, 0x00, 0x00, 0x0a, 0x00, 
  0x10, 0x00, 0x0c, 0x00, 0x08, 0x00, 0x04, 0x00, 0x0a, 0x00, 0x00, 0x00, 
  0x0c, 0x00, 0x00, 0x00, 0x1c, 0x00, 0x00, 0x00, 0x38, 0x00, 0x00, 0x00, 
  0x0f, 0x00, 0x00, 0x00, 0x73, 0x65, 0x72, 0x76, 0x69, 0x6e, 0x67, 0x5f, 
  0x64, 0x65, 0x66, 0x61, 0x75, 0x6c, 0x74, 0x00, 0x01, 0x00, 0x00, 0x00, 
  0x04, 0x00, 0x00, 0x00, 0x98, 0xff, 0xff, 0xff, 0x09, 0x00, 0x00, 0x00, 
  0x04, 0x00, 0x00, 0x00, 0x07, 0x00, 0x00, 0x00, 0x64, 0x65, 0x6e, 0x73, 
  0x65, 0x5f, 0x32, 0x00, 0x01, 0x00, 0x00, 0x00, 0x04, 0x00, 0x00, 0x00, 
  0xc6, 0xf9, 0xff, 0xff, 0x04, 0x00, 0x00, 0x00, 0x0b, 0x00, 0x00, 0x00, 
  0x64, 0x65, 0x6e, 0x73, 0x65, 0x5f, 0x69, 0x6e, 0x70, 0x75, 0x74, 0x00, 
  0x02, 0x00, 0x00, 0x00, 0x34, 0x00, 0x00, 0x00, 0x04, 0x00, 0x00, 0x00, 
  0xdc, 0xff, 0xff, 0xff, 0x0c, 0x00, 0x00, 0x00, 0x04, 0x00, 0x00, 0x00, 
  0x13, 0x00, 0x00, 0x00, 0x43, 0x4f, 0x4e, 0x56, 0x45, 0x52, 0x53, 0x49, 
  0x4f, 0x4e, 0x5f, 0x4d, 0x45, 0x54, 0x41, 0x44, 0x41, 0x54, 0x41, 0x00, 
  0x08, 0x00, 0x0c, 0x00, 0x08, 0x00, 0x04, 0x00, 0x08, 0x00, 0x00, 0x00, 
  0x0b, 0x00, 0x00, 0x00, 0x04, 0x00, 0x00, 0x00, 0x13, 0x00, 0x00, 0x00, 
  0x6d, 0x69, 0x6e, 0x5f, 0x72, 0x75, 0x6e, 0x74, 0x69, 0x6d, 0x65, 0x5f, 
  0x76, 0x65, 0x72, 0x73, 0x69, 0x6f, 0x6e, 0x00, 0x0d, 0x00, 0x00, 0x00, 
  0x18, 0x06, 0x00, 0x00, 0x10, 0x06, 0x00, 0x00, 0xc0, 0x05, 0x00, 0x00, 
  0xa4, 0x05, 0x00, 0x00, 0x54, 0x05, 0x00, 0x00, 0x04, 0x05, 0x00, 0x00, 
  0xf4, 0x00, 0x00, 0x00, 0xa4, 0x00, 0x00, 0x00, 0x9c, 0x00, 0x00, 0x00, 
  0x94, 0x00, 0x00, 0x00, 0x8c, 0x00, 0x00, 0x00, 0x6c, 0x00, 0x00, 0x00, 
  0x04, 0x00, 0x00, 0x00, 0x72, 0xfa, 0xff, 0xff, 0x04, 0x00, 0x00, 0x00, 
  0x58, 0x00, 0x00, 0x00, 0x0c, 0x00, 0x00, 0x00, 0x08, 0x00, 0x0e, 0x00, 
  0x08, 0x00, 0x04, 0x00, 0x08, 0x00, 0x00, 0x00, 0x10, 0x00, 0x00, 0x00, 
  0x28, 0x00, 0x00, 0x00, 0x00, 0x00, 0x06, 0x00, 0x08, 0x00, 0x04, 0x00, 
  0x06, 0x00, 0x00, 0x00, 0x04, 0x00, 0x00, 0x00, 0x01, 0x00, 0x00, 0x00, 
  0xea, 0x03, 0x00, 0x00, 0x00, 0x00, 0x0a, 0x00, 0x10, 0x00, 0x0c, 0x00, 
  0x08, 0x00, 0x04, 0x00, 0x0a, 0x00, 0x00, 0x00, 0x02, 0x00, 0x00, 0x00, 
  0x02, 0x00, 0x00, 0x00, 0x04, 0x00, 0x00, 0x00, 0x06, 0x00, 0x00, 0x00, 
  0x32, 0x2e, 0x31, 0x32, 0x2e, 0x30, 0x00, 0x00, 0xd6, 0xfa, 0xff, 0xff, 
  0x04, 0x00, 0x00, 0x00, 0x10, 0x00, 0x00, 0x00, 0x31, 0x2e, 0x35, 0x2e, 
  0x30, 0x00, 0x00, 0x00, 0x00, 0x00, 0x00, 0x00, 0x00, 0x00, 0x00, 0x00, 
  0xc0, 0xf5, 0xff, 0xff, 0xc4, 0xf5, 0xff, 0xff, 0xc8, 0xf5, 0xff, 0xff, 
  0xfe, 0xfa, 0xff, 0xff, 0x04, 0x00, 0x00, 0x00, 0x40, 0x00, 0x00, 0x00, 
  0xa6, 0xfe, 0x54, 0x3f, 0x83, 0x95, 0xe0, 0x3e, 0x7d, 0xaa, 0x86, 0x3f, 
  0x63, 0x2f, 0xbe, 0x3e, 0xfd, 0x1c, 0x58, 0x3f, 0x96, 0xa8, 0x0a, 0xbf, 
  0x88, 0x68, 0x5b, 0x3f, 0x21, 0xfb, 0xdd, 0xbc, 0xcd, 0x28, 0x1f, 0xbf, 
  0xad, 0x82, 0x69, 0xbf, 0xbc, 0x8f, 0xd3, 0x3e, 0x78, 0x5d, 0x8f, 0x3f, 
  0x24, 0x56, 0x89, 0x3e, 0xd0, 0x60, 0xc2, 0xbe, 0x97, 0x37, 0x07, 0xbe, 
  0x14, 0x46, 0xac, 0x3f, 0x4a, 0xfb, 0xff, 0xff, 0x04, 0x00, 0x00, 0x00, 
  0x00, 0x04, 0x00, 0x00, 0x36, 0x38, 0x49, 0x3e, 0x7c, 0xa0, 0xa4, 0x3d, 
  0x8c, 0x7a, 0x6a, 0xbe, 0x50, 0xdc, 0x8d, 0x3c, 0xa7, 0xf1, 0x77, 0xbe, 
  0xcc, 0x76, 0xe3, 0xbe, 0x02, 0x80, 0x8b, 0x3d, 0xfc, 0x26, 0xb3, 0x3d, 
  0x3f, 0x2a, 0x9a, 0xbe, 0x1d, 0x10, 0x88, 0x3e, 0x9d, 0x99, 0xe5, 0x3d, 
  0xa2, 0x7d, 0xb1, 0xbe, 0x85, 0x1b, 0x8e, 0xbe, 0x6a, 0xf7, 0x4a, 0x3e, 
  0xda, 0x3d, 0x12, 0xbd, 0xe4, 0x7f, 0xa0, 0x3d, 0x1c, 0x14, 0xa3, 0xbe, 
  0xf2, 0x78, 0x87, 0xbe, 0x40, 0x9b, 0x93, 0x3b, 0xa4, 0xb8, 0x97, 0x3d, 
  0x19, 0xba, 0x42, 0xbe, 0xca, 0xec, 0xc8, 0x3e, 0x85, 0xce, 0x8c, 0x3e, 
  0x6b, 0xc3, 0x72, 0xbe, 0x4d, 0xdd, 0xa4, 0x3e, 0xc9, 0x3f, 0xa0, 0xbe, 
  0x09, 0x64, 0xae, 0xbc, 0x43, 0xc8, 0x8a, 0x3e, 0xf7, 0xd3, 0x18, 0x3f, 
  0x40, 0x82, 0x9c, 0x3c, 0x10, 0x13, 0x63, 0x3e, 0x80, 0x7f, 0x82, 0xbe, 
  0x8a, 0xa0, 0xb5, 0xbe, 0x37, 0x4f, 0x8c, 0xbe, 0x04, 0xbe, 0xf2, 0x3d, 
  0xec, 0xb1, 0x82, 0x3d, 0xc5, 0xad, 0x54, 0xbe, 0x72, 0x9d, 0x0f, 0xbf, 
  0xa1, 0x66, 0x01, 0xbf, 0x8c, 0x6b, 0xcd, 0xbd, 0x66, 0xc3, 0xbd, 0xbe, 
  0x42, 0x1e, 0x05, 0x3f, 0xce, 0xa9, 0x7a, 0x3e, 0x70, 0xe7, 0x96, 0xbc, 
  0x71, 0x0f, 0xe6, 0xbd, 0xeb, 0x15, 0xd1, 0x3e, 0xf5, 0x43, 0x61, 0xbe, 
  0xb1, 0xd2, 0x77, 0xbd, 0x84, 0x1d, 0xdd, 0xbe, 0x60, 0x81, 0x97, 0xbd, 
  0xda, 0x53, 0x11, 0xbe, 0xa2, 0xbd, 0x36, 0x3e, 0xf0, 0x98, 0xec, 0xbc, 
  0xe1, 0xab, 0xc2, 0x3e, 0x1d, 0xe3, 0xc8, 0x3e, 0x66, 0x06, 0x53, 0x3e, 
  0xd3, 0x9c, 0xac, 0x3e, 0x34, 0xd7, 0xd3, 0x3d, 0xbb, 0xa5, 0x88, 0x3e, 
  0x68, 0x6b, 0x0a, 0xbe, 0x5a, 0x5d, 0x6b, 0x3e, 0xcf, 0x63, 0xc7, 0x3e, 
  0xc7, 0x1b, 0x72, 0xbe, 0x9b, 0xa6, 0x0c, 0xbf, 0x90, 0x6f, 0x9f, 0xbc, 
  0xe2, 0x49, 0x99, 0xbe, 0xa3, 0xcd, 0xb2, 0x3e, 0xcf, 0xb4, 0xda, 0x3e, 
  0xb9, 0xc1, 0x8d, 0x3e, 0x28, 0xce, 0x00, 0xbf, 0xcd, 0x35, 0xa9, 0xbe, 
  0xe4, 0x33, 0xba, 0xbe, 0x85, 0x78, 0xa0, 0xbd, 0x87, 0x70, 0x2c, 0xbe, 
  0x05, 0x30, 0xc3, 0xbd, 0xe1, 0x54, 0x80, 0x3e, 0xdc, 0x1d, 0x5d, 0xbe, 
  0x24, 0x0f, 0x95, 0x3d, 0x0f, 0xbf, 0xd2, 0x3e, 0xf5, 0xf1, 0xd7, 0x3e, 
  0x40, 0xdb, 0xac, 0x3b, 0x11, 0xef, 0x62, 0xbe, 0x7b, 0x01, 0xd5, 0x3e, 
  0x2c, 0xff, 0x8c, 0x3d, 0xb9, 0x26, 0x9b, 0x3e, 0xa7, 0xe3, 0x1e, 0xbe, 
  0xa4, 0xba, 0xd2, 0xbe, 0xba, 0x98, 0x7a, 0xbe, 0x20, 0xf1, 0x92, 0xbe, 
  0x73, 0x4e, 0x30, 0xbc, 0x60, 0xae, 0xdd, 0x3e, 0x24, 0x7b, 0xcd, 0x3d, 
  0x14, 0x6d, 0x15, 0xbf, 0x38, 0xa3, 0x36, 0xbe, 0x9b, 0x57, 0x0b, 0x3e, 
  0x6a, 0xd7, 0xa8, 0x3e, 0xf4, 0x64, 0xcb, 0x3d, 0xc2, 0x98, 0x11, 0xbe, 
  0x8f, 0x16, 0xcd, 0xbe, 0x72, 0xf0, 0x22, 0x3e, 0xd0, 0x33, 0x2b, 0xbd, 
  0x45, 0x51, 0xb4, 0x3c, 0x79, 0x25, 0xb8, 0xbe, 0x9d, 0xc2, 0x81, 0x3e, 
  0xff, 0x83, 0x0a, 0xbf, 0xb6, 0x7b, 0x25, 0x3d, 0x74, 0xd1, 0x8e, 0x3e, 
  0xe0, 0x1f, 0xd2, 0xbc, 0xa0, 0xf1, 0x8f, 0xbe, 0xb1, 0xc9, 0xb0, 0x3e, 
  0xd2, 0xc2, 0x02, 0x3e, 0xe8, 0x05, 0x74, 0xbe, 0x8c, 0x0d, 0x9d, 0x3d, 
  0x99, 0x98, 0xae, 0xbe, 0x36, 0x8b, 0x67, 0x3e, 0x2d, 0xdc, 0xa9, 0x3e, 
  0x38, 0x5b, 0x26, 0x3d, 0x8a, 0xc5, 0x46, 0x3e, 0x2c, 0x07, 0x92, 0x3e, 
  0x29, 0x63, 0xbb, 0x3e, 0xeb, 0xe5, 0xfe, 0xbd, 0x4b, 0x4f, 0x98, 0xbe, 
  0x6a, 0x31, 0x95, 0xbe, 0xa3, 0x19, 0xad, 0x3e, 0x1b, 0xfd, 0xea, 0xbd, 
  0xa3, 0x8e, 0xdc, 0x3e, 0x57, 0x4a, 0xb8, 0x3e, 0xbb, 0x0e, 0x7d, 0xbe, 
  0xe1, 0x34, 0x8e, 0xbe, 0x31, 0x6e, 0xb9, 0x3e, 0x8b, 0x09, 0xbe, 0xbe, 
  0xd2, 0xa7, 0x2c, 0x3e, 0x97, 0x03, 0xa1, 0x3e, 0x85, 0x5b, 0xf3, 0xbd, 
  0xf8, 0x15, 0xed, 0xbe, 0xab, 0x41, 0x42, 0xbe, 0x4a, 0xde, 0x11, 0xbf, 
  0x68, 0xac, 0xed, 0x3e, 0xb1, 0xef, 0x03, 0x3d, 0x00, 0x5c, 0x12, 0xba, 
  0xc3, 0x5d, 0x21, 0xbf, 0x0a, 0x64, 0x59, 0x3e, 0x46, 0x3e, 0x8f, 0xba, 
  0x00, 0x7e, 0xd4, 0xbe, 0x84, 0x2e, 0xd3, 0x3d, 0x3c, 0x09, 0xc6, 0x3d, 
  0x84, 0x7c, 0xd7, 0x3d, 0x8a, 0x11, 0xbb, 0xbe, 0x32, 0x09, 0x17, 0xbe, 
  0xed, 0x15, 0xee, 0xbd, 0xdf, 0x22, 0x70, 0x3e, 0xfc, 0xbe, 0xcc, 0xbe, 
  0x66, 0x43, 0x02, 0xbf, 0xd3, 0xd8, 0x0c, 0x3f, 0x83, 0x77, 0x02, 0xbf, 
  0xcc, 0x73, 0x9a, 0xbe, 0x95, 0x55, 0xae, 0xbe, 0x60, 0x76, 0x42, 0xbd, 
  0x8b, 0xc1, 0x88, 0x3e, 0x8f, 0x21, 0x83, 0xbe, 0xf0, 0x34, 0x05, 0x3d, 
  0x66, 0xfe, 0x08, 0x3e, 0x67, 0xf2, 0x5e, 0xbe, 0x62, 0x84, 0x6b, 0x3e, 
  0xfe, 0x1c, 0x0b, 0xbe, 0x54, 0x19, 0x37, 0xbe, 0x34, 0x60, 0xd6, 0xbe, 
  0x30, 0xf8, 0x1a, 0x3d, 0xe0, 0xd5, 0x83, 0x3c, 0xa8, 0xda, 0x69, 0xbe, 
  0x2d, 0x23, 0xb4, 0xbe, 0x79, 0xc1, 0xc9, 0x3e, 0xe4, 0x3e, 0xd9, 0x3d, 
  0x19, 0xce, 0xd4, 0xbe, 0xc0, 0xc7, 0x15, 0xbc, 0x93, 0x2e, 0x8c, 0x3e, 
  0x30, 0xa3, 0xbb, 0x3c, 0x20, 0xa2, 0x7f, 0xbc, 0x32, 0x00, 0x63, 0x3e, 
  0xe5, 0xfe, 0x84, 0x3e, 0x6c, 0x5b, 0xf8, 0xbd, 0xbd, 0x58, 0x14, 0xbf, 
  0x7c, 0xd4, 0x04, 0xbf, 0x76, 0xfe, 0xcc, 0xbe, 0x84, 0x34, 0xc6, 0xbe, 
  0x47, 0xea, 0xcf, 0x3e, 0xa9, 0x54, 0xef, 0x3d, 0x7b, 0x53, 0xcd, 0x3e, 
  0xcb, 0x4f, 0x25, 0xbf, 0x5c, 0xe6, 0xb9, 0x3d, 0xd2, 0x69, 0xc6, 0x3e, 
  0xb8, 0x92, 0xd2, 0x3d, 0x46, 0x21, 0x59, 0x3e, 0x6e, 0x0f, 0x02, 0x3e, 
  0x48, 0x3b, 0x4e, 0xbd, 0x0a, 0xaa, 0x40, 0x3e, 0x7f, 0xd9, 0x55, 0xbe, 
  0x2a, 0xf4, 0x9e, 0xbe, 0x8e, 0xe6, 0x46, 0x3e, 0xd7, 0xf3, 0xcc, 0x3e, 
  0x24, 0xc5, 0xc2, 0xbe, 0x5e, 0x2d, 0xc7, 0xbe, 0x80, 0x93, 0x7d, 0x3b, 
  0xac, 0x1a, 0xbe, 0x3d, 0x00, 0x9d, 0x26, 0xbc, 0xcd, 0x78, 0x9c, 0x3e, 
  0xe0, 0x4f, 0x07, 0xbe, 0xa6, 0x28, 0xbd, 0xbe, 0x5c, 0x4a, 0xc1, 0xbd, 
  0x17, 0x8c, 0x42, 0xbe, 0xc0, 0xe2, 0x09, 0x3d, 0xd9, 0x6d, 0x6e, 0xbe, 
  0x16, 0xa6, 0x61, 0xbe, 0x76, 0x2f, 0x59, 0x3e, 0x8b, 0xa6, 0x6f, 0x3e, 
  0xf6, 0x3d, 0x70, 0x3e, 0x31, 0x31, 0x0a, 0x3e, 0x2d, 0x00, 0xd2, 0x3e, 
  0x1e, 0xfe, 0xdd, 0x3d, 0x51, 0xba, 0x69, 0xbe, 0xa4, 0xc1, 0x33, 0xbf, 
  0x33, 0x85, 0x8d, 0x3e, 0xda, 0x88, 0x87, 0x3b, 0xba, 0x57, 0x80, 0xbe, 
  0x20, 0x0c, 0xa9, 0x3c, 0xca, 0x9b, 0x3f, 0x3e, 0x60, 0x24, 0x33, 0xbd, 
  0x30, 0x28, 0x63, 0x3d, 0x48, 0x07, 0x35, 0xbd, 0x13, 0x86, 0x2d, 0xbe, 
  0x5b, 0xa7, 0x4b, 0xbe, 0x7e, 0x02, 0x4a, 0x3e, 0xdb, 0xb0, 0x73, 0x3d, 
  0xde, 0x3e, 0x0e, 0xbe, 0x97, 0x27, 0x80, 0x3e, 0xbc, 0xf3, 0x93, 0x3d, 
  0x6c, 0x6d, 0x78, 0xbd, 0x22, 0x39, 0xc8, 0xbe, 0x79, 0x0a, 0x05, 0xbe, 
  0xdb, 0x8b, 0x90, 0x3e, 0x71, 0x46, 0xb7, 0xbe, 0x48, 0x82, 0x33, 0xbe, 
  0xe6, 0x66, 0x6a, 0x3e, 0x32, 0xb2, 0xc4, 0xbe, 0x7c, 0x82, 0xac, 0xbd, 
  0xda, 0x32, 0x06, 0xbd, 0xbe, 0xc8, 0x4a, 0xbd, 0xd0, 0x3e, 0x64, 0xbe, 
  0x15, 0x81, 0x6c, 0x3e, 0xb6, 0x4a, 0x05, 0xbf, 0x06, 0x9e, 0x9f, 0x3e, 
  0x78, 0x3d, 0x8d, 0xbe, 0xa1, 0xbc, 0x04, 0x3f, 0xca, 0x05, 0xb0, 0xbe, 
  0x3a, 0x94, 0xdd, 0x3d, 0x5f, 0x76, 0x8f, 0xbe, 0x56, 0xff, 0xff, 0xff, 
  0x04, 0x00, 0x00, 0x00, 0x40, 0x00, 0x00, 0x00, 0x93, 0x38, 0x0c, 0xbf, 
  0x00, 0xaa, 0x6e, 0xbd, 0x80, 0xd3, 0x6c, 0xbd, 0x60, 0xb1, 0x8e, 0xbc, 
  0x6a, 0x2a, 0x86, 0xbe, 0x4d, 0x12, 0x8a, 0x3e, 0xb0, 0x22, 0x6f, 0x3e, 
  0x2e, 0xf7, 0x1e, 0xbe, 0xbd, 0xea, 0xc5, 0x3e, 0x79, 0x0c, 0x2f, 0x3e, 
  0xa1, 0x12, 0x2d, 0x3f, 0x7c, 0x84, 0x08, 0xbf, 0xe4, 0x2a, 0x8f, 0x3e, 
  0x28, 0xf1, 0x25, 0xbe, 0xb6, 0x74, 0x68, 0x3e, 0xd0, 0xf7, 0x9c, 0x3e, 
  0xa2, 0xff, 0xff, 0xff, 0x04, 0x00, 0x00, 0x00, 0x40, 0x00, 0x00, 0x00, 
  0x00, 0x00, 0x00, 0x00, 0x00, 0x00, 0x00, 0x00, 0x00, 0x00, 0x00, 0x00, 
  0x00, 0x00, 0x00, 0x00, 0x00, 0x00, 0x00, 0x00, 0xc3, 0xf2, 0x92, 0xbe, 
  0x04, 0xc3, 0xcd, 0xbe, 0x00, 0x00, 0x00, 0x00, 0xf9, 0xd5, 0xf9, 0xbe, 
  0x18, 0xef, 0x09, 0x3f, 0x99, 0xb5, 0x02, 0x3d, 0x00, 0x00, 0x00, 0x00, 
  0x66, 0xf1, 0x50, 0xbf, 0x00, 0x00, 0x00, 0x00, 0x80, 0x05, 0x48, 0x3e, 
  0xe5, 0xee, 0x6f, 0x3e, 0xee, 0xff, 0xff, 0xff, 0x04, 0x00, 0x00, 0x00, 
  0x04, 0x00, 0x00, 0x00, 0x23, 0x70, 0xb2, 0xbe, 0x00, 0x00, 0x06, 0x00, 
  0x08, 0x00, 0x04, 0x00, 0x06, 0x00, 0x00, 0x00, 0x04, 0x00, 0x00, 0x00, 
  0x40, 0x00, 0x00, 0x00, 0x90, 0xe0, 0x26, 0x3e, 0x37, 0x0e, 0xd2, 0xbe, 
  0xaf, 0x0f, 0x41, 0x3e, 0xc0, 0x45, 0xdd, 0xbe, 0xd7, 0xa7, 0xca, 0x3c, 
  0x9c, 0x27, 0x42, 0x3d, 0xee, 0xe0, 0x73, 0x3e, 0xc3, 0x5a, 0x20, 0x3b, 
  0xe5, 0x5b, 0xb9, 0x3e, 0xb8, 0x78, 0xc6, 0x3e, 0x00, 0x00, 0x00, 0x00, 
  0x4c, 0x4c, 0x3a, 0x3e, 0x00, 0x00, 0x00, 0x00, 0x59, 0x6c, 0x3f, 0x3e, 
  0xa5, 0x44, 0x30, 0x3e, 0xd5, 0xb2, 0x09, 0xbf, 0x20, 0xfb, 0xff, 0xff, 
  0x24, 0xfb, 0xff, 0xff, 0x0f, 0x00, 0x00, 0x00, 0x4d, 0x4c, 0x49, 0x52, 
  0x20, 0x43, 0x6f, 0x6e, 0x76, 0x65, 0x72, 0x74, 0x65, 0x64, 0x2e, 0x00, 
  0x01, 0x00, 0x00, 0x00, 0x14, 0x00, 0x00, 0x00, 0x00, 0x00, 0x0e, 0x00, 
  0x18, 0x00, 0x14, 0x00, 0x10, 0x00, 0x0c, 0x00, 0x08, 0x00, 0x04, 0x00, 
  0x0e, 0x00, 0x00, 0x00, 0x14, 0x00, 0x00, 0x00, 0x1c, 0x00, 0x00, 0x00, 
  0xd8, 0x00, 0x00, 0x00, 0xdc, 0x00, 0x00, 0x00, 0xe0, 0x00, 0x00, 0x00, 
  0x04, 0x00, 0x00, 0x00, 0x6d, 0x61, 0x69, 0x6e, 0x00, 0x00, 0x00, 0x00, 
  0x03, 0x00, 0x00, 0x00, 0x80, 0x00, 0x00, 0x00, 0x38, 0x00, 0x00, 0x00, 
  0x04, 0x00, 0x00, 0x00, 0x9a, 0xff, 0xff, 0xff, 0x10, 0x00, 0x00, 0x00, 
  0x00, 0x00, 0x00, 0x08, 0x0c, 0x00, 0x00, 0x00, 0x10, 0x00, 0x00, 0x00, 
  0x9c, 0xfb, 0xff, 0xff, 0x01, 0x00, 0x00, 0x00, 0x09, 0x00, 0x00, 0x00, 
  0x03, 0x00, 0x00, 0x00, 0x08, 0x00, 0x00, 0x00, 0x06, 0x00, 0x00, 0x00, 
  0x02, 0x00, 0x00, 0x00, 0xca, 0xff, 0xff, 0xff, 0x10, 0x00, 0x00, 0x00, 
  0x00, 0x00, 0x00, 0x08, 0x10, 0x00, 0x00, 0x00, 0x14, 0x00, 0x00, 0x00, 
  0xba, 0xff, 0xff, 0xff, 0x00, 0x00, 0x00, 0x01, 0x01, 0x00, 0x00, 0x00, 
  0x08, 0x00, 0x00, 0x00, 0x03, 0x00, 0x00, 0x00, 0x07, 0x00, 0x00, 0x00, 
  0x05, 0x00, 0x00, 0x00, 0x01, 0x00, 0x00, 0x00, 0x00, 0x00, 0x0e, 0x00, 
  0x16, 0x00, 0x00, 0x00, 0x10, 0x00, 0x0c, 0x00, 0x0b, 0x00, 0x04, 0x00, 
  0x0e, 0x00, 0x00, 0x00, 0x18, 0x00, 0x00, 0x00, 0x00, 0x00, 0x00, 0x08, 
  0x18, 0x00, 0x00, 0x00, 0x1c, 0x00, 0x00, 0x00, 0x00, 0x00, 0x06, 0x00, 
  0x08, 0x00, 0x07, 0x00, 0x06, 0x00, 0x00, 0x00, 0x00, 0x00, 0x00, 0x01, 
  0x01, 0x00, 0x00, 0x00, 0x07, 0x00, 0x00, 0x00, 0x03, 0x00, 0x00, 0x00, 
  0x00, 0x00, 0x00, 0x00, 0x04, 0x00, 0x00, 0x00, 0x03, 0x00, 0x00, 0x00, 
  0x01, 0x00, 0x00, 0x00, 0x09, 0x00, 0x00, 0x00, 0x01, 0x00, 0x00, 0x00, 
  0x00, 0x00, 0x00, 0x00, 0x0a, 0x00, 0x00, 0x00, 0x8c, 0x03, 0x00, 0x00, 
  0x1c, 0x03, 0x00, 0x00, 0xac, 0x02, 0x00, 0x00, 0x58, 0x02, 0x00, 0x00, 
  0x10, 0x02, 0x00, 0x00, 0xc4, 0x01, 0x00, 0x00, 0x78, 0x01, 0x00, 0x00, 
  0xf0, 0x00, 0x00, 0x00, 0x60, 0x00, 0x00, 0x00, 0x04, 0x00, 0x00, 0x00, 
  0xb2, 0xfc, 0xff, 0xff, 0x00, 0x00, 0x00, 0x01, 0x14, 0x00, 0x00, 0x00, 
  0x1c, 0x00, 0x00, 0x00, 0x1c, 0x00, 0x00, 0x00, 0x0a, 0x00, 0x00, 0x00, 
  0x34, 0x00, 0x00, 0x00, 0x02, 0x00, 0x00, 0x00, 0xff, 0xff, 0xff, 0xff, 
  0x01, 0x00, 0x00, 0x00, 0x9c, 0xfc, 0xff, 0xff, 0x19, 0x00, 0x00, 0x00, 
  0x53, 0x74, 0x61, 0x74, 0x65, 0x66, 0x75, 0x6c, 0x50, 0x61, 0x72, 0x74, 
  0x69, 0x74, 0x69, 0x6f, 0x6e, 0x65, 0x64, 0x43, 0x61, 0x6c, 0x6c, 0x3a, 
  0x30, 0x00, 0x00, 0x00, 0x02, 0x00, 0x00, 0x00, 0x01, 0x00, 0x00, 0x00, 
  0x01, 0x00, 0x00, 0x00, 0x0a, 0xfd, 0xff, 0xff, 0x00, 0x00, 0x00, 0x01, 
  0x14, 0x00, 0x00, 0x00, 0x1c, 0x00, 0x00, 0x00, 0x1c, 0x00, 0x00, 0x00, 
  0x09, 0x00, 0x00, 0x00, 0x68, 0x00, 0x00, 0x00, 0x02, 0x00, 0x00, 0x00, 
  0xff, 0xff, 0xff, 0xff, 0x10, 0x00, 0x00, 0x00, 0xf4, 0xfc, 0xff, 0xff, 
  0x4c, 0x00, 0x00, 0x00, 0x73, 0x65, 0x71, 0x75, 0x65, 0x6e, 0x74, 0x69, 
  0x61, 0x6c, 0x2f, 0x64, 0x65, 0x6e, 0x73, 0x65, 0x5f, 0x31, 0x2f, 0x4d, 
  0x61, 0x74, 0x4d, 0x75, 0x6c, 0x3b, 0x73, 0x65, 0x71, 0x75, 0x65, 0x6e, 
  0x74, 0x69, 0x61, 0x6c, 0x2f, 0x64, 0x65, 0x6e, 0x73, 0x65, 0x5f, 0x31, 
  0x2f, 0x52, 0x65, 0x6c, 0x75, 0x3b, 0x73, 0x65, 0x71, 0x75, 0x65, 0x6e, 
  0x74, 0x69, 0x61, 0x6c, 0x2f, 0x64, 0x65, 0x6e, 0x73, 0x65, 0x5f, 0x31, 
  0x2f, 0x42, 0x69, 0x61, 0x73, 0x41, 0x64, 0x64, 0x00, 0x00, 0x00, 0x00, 
  0x02, 0x00, 0x00, 0x00, 0x01, 0x00, 0x00, 0x00, 0x10, 0x00, 0x00, 0x00, 
  0x96, 0xfd, 0xff, 0xff, 0x00, 0x00, 0x00, 0x01, 0x14, 0x00, 0x00, 0x00, 
  0x1c, 0x00, 0x00, 0x00, 0x1c, 0x00, 0x00, 0x00, 0x08, 0x00, 0x00, 0x00, 
  0x60, 0x00, 0x00, 0x00, 0x02, 0x00, 0x00, 0x00, 0xff, 0xff, 0xff, 0xff, 
  0x10, 0x00, 0x00, 0x00, 0x80, 0xfd, 0xff, 0xff, 0x46, 0x00, 0x00, 0x00, 
  0x73, 0x65, 0x71, 0x75, 0x65, 0x6e, 0x74, 0x69, 0x61, 0x6c, 0x2f, 0x64, 
  0x65, 0x6e, 0x73, 0x65, 0x2f, 0x4d, 0x61, 0x74, 0x4d, 0x75, 0x6c, 0x3b, 
  0x73, 0x65, 0x71, 0x75, 0x65, 0x6e, 0x74, 0x69, 0x61, 0x6c, 0x2f, 0x64, 
  0x65, 0x6e, 0x73, 0x65, 0x2f, 0x52, 0x65, 0x6c, 0x75, 0x3b, 0x73, 0x65, 
  0x71, 0x75, 0x65, 0x6e, 0x74, 0x69, 0x61, 0x6c, 0x2f, 0x64, 0x65, 0x6e, 
  0x73, 0x65, 0x2f, 0x42, 0x69, 0x61, 0x73, 0x41, 0x64, 0x64, 0x00, 0x00, 
  0x02, 0x00, 0x00, 0x00, 0x01, 0x00, 0x00, 0x00, 0x10, 0x00, 0x00, 0x00, 
  0x86, 0xfe, 0xff, 0xff, 0x00, 0x00, 0x00, 0x01, 0x10, 0x00, 0x00, 0x00, 
  0x10, 0x00, 0x00, 0x00, 0x07, 0x00, 0x00, 0x00, 0x28, 0x00, 0x00, 0x00, 
  0xf4, 0xfd, 0xff, 0xff, 0x19, 0x00, 0x00, 0x00, 0x73, 0x65, 0x71, 0x75, 
  0x65, 0x6e, 0x74, 0x69, 0x61, 0x6c, 0x2f, 0x64, 0x65, 0x6e, 0x73, 0x65, 
  0x5f, 0x32, 0x2f, 0x4d, 0x61, 0x74, 0x4d, 0x75, 0x6c, 0x00, 0x00, 0x00, 
  0x02, 0x00, 0x00, 0x00, 0x01, 0x00, 0x00, 0x00, 0x10, 0x00, 0x00, 0x00, 
  0xce, 0xfe, 0xff, 0xff, 0x00, 0x00, 0x00, 0x01, 0x10, 0x00, 0x00, 0x00, 
  0x10, 0x00, 0x00, 0x00, 0x06, 0x00, 0x00, 0x00, 0x28, 0x00, 0x00, 0x00, 
  0x3c, 0xfe, 0xff, 0xff, 0x19, 0x00, 0x00, 0x00, 0x73, 0x65, 0x71, 0x75, 
  0x65, 0x6e, 0x74, 0x69, 0x61, 0x6c, 0x2f, 0x64, 0x65, 0x6e, 0x73, 0x65, 
  0x5f, 0x31, 0x2f, 0x4d, 0x61, 0x74, 0x4d, 0x75, 0x6c, 0x00, 0x00, 0x00, 
  0x02, 0x00, 0x00, 0x00, 0x10, 0x00, 0x00, 0x00, 0x10, 0x00, 0x00, 0x00, 
  0x16, 0xff, 0xff, 0xff, 0x00, 0x00, 0x00, 0x01, 0x10, 0x00, 0x00, 0x00, 
  0x10, 0x00, 0x00, 0x00, 0x05, 0x00, 0x00, 0x00, 0x24, 0x00, 0x00, 0x00, 
  0x84, 0xfe, 0xff, 0xff, 0x17, 0x00, 0x00, 0x00, 0x73, 0x65, 0x71, 0x75, 
  0x65, 0x6e, 0x74, 0x69, 0x61, 0x6c, 0x2f, 0x64, 0x65, 0x6e, 0x73, 0x65, 
  0x2f, 0x4d, 0x61, 0x74, 0x4d, 0x75, 0x6c, 0x00, 0x02, 0x00, 0x00, 0x00, 
  0x10, 0x00, 0x00, 0x00, 0x01, 0x00, 0x00, 0x00, 0x5a, 0xff, 0xff, 0xff, 
  0x00, 0x00, 0x00, 0x01, 0x10, 0x00, 0x00, 0x00, 0x10, 0x00, 0x00, 0x00, 
  0x04, 0x00, 0x00, 0x00, 0x34, 0x00, 0x00, 0x00, 0xc8, 0xfe, 0xff, 0xff, 
  0x27, 0x00, 0x00, 0x00, 0x73, 0x65, 0x71, 0x75, 0x65, 0x6e, 0x74, 0x69, 
  0x61, 0x6c, 0x2f, 0x64, 0x65, 0x6e, 0x73, 0x65, 0x2f, 0x42, 0x69, 0x61, 
  0x73, 0x41, 0x64, 0x64, 0x2f, 0x52, 0x65, 0x61, 0x64, 0x56, 0x61, 0x72, 
  0x69, 0x61, 0x62, 0x6c, 0x65, 0x4f, 0x70, 0x00, 0x01, 0x00, 0x00, 0x00, 
  0x10, 0x00, 0x00, 0x00, 0xaa, 0xff, 0xff, 0xff, 0x00, 0x00, 0x00, 0x01, 
  0x10, 0x00, 0x00, 0x00, 0x10, 0x00, 0x00, 0x00, 0x03, 0x00, 0x00, 0x00, 
  0x38, 0x00, 0x00, 0x00, 0x18, 0xff, 0xff, 0xff, 0x29, 0x00, 0x00, 0x00, 
  0x73, 0x65, 0x71, 0x75, 0x65, 0x6e, 0x74, 0x69, 0x61, 0x6c, 0x2f, 0x64, 
  0x65, 0x6e, 0x73, 0x65, 0x5f, 0x32, 0x2f, 0x42, 0x69, 0x61, 0x73, 0x41, 
  0x64, 0x64, 0x2f, 0x52, 0x65, 0x61, 0x64, 0x56, 0x61, 0x72, 0x69, 0x61, 
  0x62, 0x6c, 0x65, 0x4f, 0x70, 0x00, 0x00, 0x00, 0x01, 0x00, 0x00, 0x00, 
  0x01, 0x00, 0x00, 0x00, 0x00, 0x00, 0x16, 0x00, 0x18, 0x00, 0x14, 0x00, 
  0x00, 0x00, 0x10, 0x00, 0x0c, 0x00, 0x08, 0x00, 0x00, 0x00, 0x00, 0x00, 
  0x00, 0x00, 0x07, 0x00, 0x16, 0x00, 0x00, 0x00, 0x00, 0x00, 0x00, 0x01, 
  0x10, 0x00, 0x00, 0x00, 0x10, 0x00, 0x00, 0x00, 0x02, 0x00, 0x00, 0x00, 
  0x38, 0x00, 0x00, 0x00, 0x84, 0xff, 0xff, 0xff, 0x29, 0x00, 0x00, 0x00, 
  0x73, 0x65, 0x71, 0x75, 0x65, 0x6e, 0x74, 0x69, 0x61, 0x6c, 0x2f, 0x64, 
  0x65, 0x6e, 0x73, 0x65, 0x5f, 0x31, 0x2f, 0x42, 0x69, 0x61, 0x73, 0x41, 
  0x64, 0x64, 0x2f, 0x52, 0x65, 0x61, 0x64, 0x56, 0x61, 0x72, 0x69, 0x61, 
  0x62, 0x6c, 0x65, 0x4f, 0x70, 0x00, 0x00, 0x00, 0x01, 0x00, 0x00, 0x00, 
  0x10, 0x00, 0x00, 0x00, 0x00, 0x00, 0x16, 0x00, 0x1c, 0x00, 0x18, 0x00, 
  0x00, 0x00, 0x14, 0x00, 0x10, 0x00, 0x0c, 0x00, 0x00, 0x00, 0x00, 0x00, 
  0x08, 0x00, 0x07, 0x00, 0x16, 0x00, 0x00, 0x00, 0x00, 0x00, 0x00, 0x01, 
  0x14, 0x00, 0x00, 0x00, 0x20, 0x00, 0x00, 0x00, 0x20, 0x00, 0x00, 0x00, 
  0x01, 0x00, 0x00, 0x00, 0x3c, 0x00, 0x00, 0x00, 0x02, 0x00, 0x00, 0x00, 
  0xff, 0xff, 0xff, 0xff, 0x01, 0x00, 0x00, 0x00, 0x04, 0x00, 0x04, 0x00, 
  0x04, 0x00, 0x00, 0x00, 0x1d, 0x00, 0x00, 0x00, 0x73, 0x65, 0x72, 0x76, 
  0x69, 0x6e, 0x67, 0x5f, 0x64, 0x65, 0x66, 0x61, 0x75, 0x6c, 0x74, 0x5f, 
  0x64, 0x65, 0x6e, 0x73, 0x65, 0x5f, 0x69, 0x6e, 0x70, 0x75, 0x74, 0x3a, 
  0x30, 0x00, 0x00, 0x00, 0x02, 0x00, 0x00, 0x00, 0x01, 0x00, 0x00, 0x00, 
  0x01, 0x00, 0x00, 0x00, 0x01, 0x00, 0x00, 0x00, 0x10, 0x00, 0x00, 0x00, 
  0x0c, 0x00, 0x0c, 0x00, 0x0b, 0x00, 0x00, 0x00, 0x00, 0x00, 0x04, 0x00, 
  0x0c, 0x00, 0x00, 0x00, 0x09, 0x00, 0x00, 0x00, 0x00, 0x00, 0x00, 0x09
};

#endif //SINE_MODEL_H